/**
  ******************************************************************************
  * @file    network_data.c
  * @author  AST Embedded Analytics Research Platform
  * @date    Mon Jan 24 13:32:19 2022
  * @brief   AI Tool Automatic Code Generator for Embedded NN computing
  ******************************************************************************
  * @attention
  *
  * Copyright (c) 2022 STMicroelectronics.
  * All rights reserved.
  *
  * This software component is licensed by ST under Ultimate Liberty license
  * SLA0044, the "License"; You may not use this file except in compliance with
  * the License. You may obtain a copy of the License at:
  *                             www.st.com/SLA0044
  *
  ******************************************************************************
  */
#include "network_data.h"
#include "ai_platform_interface.h"


AI_ALIGNED(32)
const ai_u64 s_network_weights_array_u64[ 665 ] = {
  0x3e0d690fbe3469b2U, 0x3dfb049abd91c5bcU, 0x3d9695733d85f36cU, 0x3b79c9803e395d26U,
  0x3db577213e1ed256U, 0x3e99d5d53dd244a6U, 0xbe00bebabc7b8a38U, 0x3e967927bd8569b8U,
  0xbd55b158bd9c4803U, 0x3b7e2173bab55b0eU, 0x3e234cf43e134973U, 0x3e00bf5e3e8492faU,
  0xbe0baa29be8c863aU, 0x3d919ef53ea72ba4U, 0xbd564f8c3e9a204aU, 0xbc733f59bcec9a9fU,
  0x3e5f3111bd301080U, 0xbe0ce55f3d1974d2U, 0xbda85b41bd139cbaU, 0xbe8accd5be1cad99U,
  0xbe8aea75bba8945cU, 0x3b66f03dbe1eb80fU, 0xbd12529cbd56e545U, 0x3d0b50ac3e165543U,
  0xbd7c441b3e23e75aU, 0x3e3f049b3dba44b3U, 0xbdaafc54be491e7eU, 0xbeb973903d3ffac2U,
  0xbdf4de93bd9def35U, 0x3c48f5953e27ff23U, 0x3e2e2c8b3c5c4520U, 0x3e21e0b13dfa7e0eU,
  0x3c43ce403df680c4U, 0xbd5af4c43db2bb9cU, 0x3e3643ecbe84bca8U, 0xbe30a5dcbc9f6300U,
  0x3e40cd52bdccbaa6U, 0x3da50e94be601a54U, 0xbe64e7ad3d62fde0U, 0xbe7181eebe7ce0c9U,
  0xbe4cd3dcbe1e04a2U, 0xbe172623be5a8c1eU, 0x3e80ac1c3dc3066cU, 0xbdc3c044be5479f4U,
  0x3e2b3974be3fe71fU, 0x3e7f0b94bde6df2cU, 0x3b920b803ca1bb90U, 0xbe6716823e823f6cU,
  0x3db7c368be77bc21U, 0xbe802f973e1da4fcU, 0xbdbaa9443e8bff6aU, 0xbe1a9f6e3dfc0aacU,
  0xbda39494be4f31ccU, 0x3e3dc9fc3e83cd18U, 0x3e7257e4bdaaa2a0U, 0xbe03cf68be17ba8dU,
  0x3be0eac0be49c5d6U, 0x3e6ba610be6526aeU, 0x3dba657cbe6ff755U, 0xbe61f205bdf6bd8eU,
  0x3e3513683d704728U, 0xbe240c4e3c837920U, 0xbdc8eaf43e54df78U, 0xbca460b03dd04300U,
  0xbe20e4233e069819U, 0x3e8686bbbe611d0dU, 0xbde320123e1379e0U, 0x3e11f39d3e1b8567U,
  0xbe7c47093d0071daU, 0x3e8282aebe37927fU, 0x3e56e6603c738f51U, 0xbe6d455bbe68faeeU,
  0xbe55faed3e2c8326U, 0xbe31ad9a3e907f08U, 0x3db3f0e83e8fcce1U, 0xbe24943bbcb48564U,
  0x3dd0a0c13e6474baU, 0xbe6c52ec3e3d9f67U, 0x3e20e428bbb044e2U, 0x3b0afc9abdd60aabU,
  0xbe3b37b33e2ddf83U, 0xbda8d9da3d00ec6eU, 0x3e2018953e8c28f8U, 0xbcd78c913cd69ab4U,
  0x3bf752c4be058699U, 0x3eaa7b12bccdf46fU, 0x3dcd8a863e96ed8cU, 0xbe37ea233d7f6169U,
  0xbe197e163e74e5cbU, 0x3e842493be16444cU, 0x3eda2da13eb822f8U, 0x3e7281863eb5fb48U,
  0xbe8d2bcbbe00f3e3U, 0xbe0c009e3c627c37U, 0xbe8bc0e6bd52ef15U, 0xbeb87461bec1348fU,
  0xbc12f781bdf387b3U, 0x3db5dd38be183ce5U, 0xbdce653c3ddeee93U, 0x3d1c28f8be3b6b88U,
  0x3c0fc87bbe650bc9U, 0xbccf99273dc412a1U, 0x3dcff8a6be8dffb9U, 0x3e383a69be841c1bU,
  0xbdf77312bcfaa4e2U, 0xbe85bf503d096627U, 0x3e319bf6bdcba413U, 0xbd99e548be69ccccU,
  0xbe53d4673e10eb3aU, 0xbe714d083c56b6d3U, 0xbe26519fbdb525a2U, 0xbe946ecfbcbcb299U,
  0xbdd1a43c3bae4878U, 0x3e5803ae3e2dfa6eU, 0xbce92f0c3e4531e5U, 0x3e31f838be4a1670U,
  0xbe85e613bc286a6fU, 0x3e3a9a263e41e203U, 0xbd9b81abbe820a26U, 0x3e545303bd5f0e71U,
  0xbd8500c73c179562U, 0x3e37edf73e5e64bdU, 0x3e169bc0b9a30b80U, 0x3cc4a98bbe1238dcU,
  0x3e2dfb99be7e71ecU, 0x3e1e4fb43db8a1b5U, 0x3da436f2be0ba86cU, 0x3d7272743d71ced0U,
  0xbdfdfc1b3e53dcf5U, 0xbe8e359c3d2d2055U, 0x3e1a5d553e5eb01bU, 0xbe26f8af3e3a4bf7U,
  0x3ba8d7e53d90a2c9U, 0xbe9eeb18beb6c6c7U, 0xbd02e9993c2e1b5cU, 0xbd99439e3dd430c2U,
  0x3d175f75bcf05134U, 0xbe6275b5be0300e7U, 0xbe547e1bbe3635f2U, 0xbea50d7dbeaaac53U,
  0x3b2519e6be15aeadU, 0x3e339245be5f1348U, 0xbc6327533ac06e9eU, 0x3dad9f17bd209936U,
  0x3e71068ebd10aa5cU, 0xbe5b1dba3db29711U, 0x3df66f0ebe42e501U, 0x3d2ecc623e9828eaU,
  0x3d897b063b2cebacU, 0x3daaa6033ec4b04cU, 0x3dc985803ec0dbdaU, 0x3c72cafabe0baeebU,
  0x3e8b72f73e87607cU, 0x3ea34b383e673a8cU, 0xbd115aec3e7964b8U, 0xbdb31ec23e0b3e41U,
  0xbe10b6c13e443b0dU, 0x3de127e43e7b8d70U, 0xbe728e903e2699baU, 0x3df7b095beb09ab9U,
  0x3b7046b5be680c68U, 0xbe5b59273cc7080aU, 0xbd5aaec23e88ef40U, 0x3e37726d3e8e268fU,
  0x3e7f46613e0dd7fbU, 0xbe025c6f3dcc3a08U, 0x3d4b42f83e9c1cc9U, 0x3e9db87e3eb15c64U,
  0xbe5804e8be1b8619U, 0x3d0ac194be51dcffU, 0x3e85af54be33bfa7U, 0x3d75abe73e2a7e1aU,
  0x3d979eafbdd3c1feU, 0x3d82bb313ea59293U, 0x3e8439db3e9e5c70U, 0x3e9b02053e8295eaU,
  0x3df9d5363dd15de5U, 0x3c376334bbe9a3eaU, 0xbe86cb2c3d8a8a6aU, 0xbd8c169e3dbdd714U,
  0x3e29800bbd4a7e78U, 0x3d8b9144be94e751U, 0xbda8007a3e33bee2U, 0x3e5824383e770224U,
  0x3e67df893c833df4U, 0xbe9efcd5be174de9U, 0xbe98ce653d8d17a3U, 0xbd81bb5dbd1e17d0U,
  0xbb67e52ebe8ce4acU, 0x3ea493a43e9ab25aU, 0x3eae63973e912762U, 0x3d5cd34a3e831256U,
  0xbe276205bdd2b3f8U, 0xbe41133cbdcd8c4dU, 0xbe2a61cfbd86c3ffU, 0x3d6ae973be9601ebU,
  0x3df17ddcbe541e4eU, 0xbd0f9c89be861a63U, 0xbd1d0575bea20b28U, 0xbe76c0cc3e32bf77U,
  0xbe1b7eec3e34587eU, 0xbe993385be8837d0U, 0xbe8d5e5ebdafdff8U, 0x3e19faf6be0b431cU,
  0xbc0e57f2bdbc0501U, 0x3e104547bdcda26cU, 0xbdd124563e112af6U, 0x3d6f5aa5be9c18c5U,
  0xbdffb2823d8a467eU, 0x3e00f3283e2f4a1bU, 0xbdf387d0bd26e0c7U, 0x3e825774bd9678d2U,
  0xbde143213ea243eeU, 0x3a1ce2213e2de759U, 0xbd34f45bbd4c878cU, 0x3e05e0bd3ed8cde9U,
  0x3e20f38f3da6a0a4U, 0x3ead94b03e41cba1U, 0x3e9706543cbd015bU, 0x3ea151303eacdb6eU,
  0x3e9dd9f33ead16caU, 0xbdfc11ec3e912d34U, 0x3e43bbf6be98ff79U, 0x3d6f2e6f3e101bfcU,
  0xbe0e0459be322b30U, 0xbc8bf4d7bca68d53U, 0x3e7d724b3c99c796U, 0xbe21677ebe145c15U,
  0xbe69695cbd117c63U, 0xbd17470f3e7c5b64U, 0x3d8464c4bd657558U, 0x3e804d0e3e86eac0U,
  0x3e8514373dac6c71U, 0xbe441456be85508aU, 0x3d6d34bfbda5297cU, 0x3aa271babd2e37baU,
  0x3e862d8ebd5c5a37U, 0x3d4ca9853e483f23U, 0xbe69e1353d7e1d2cU, 0xbe696da5be8f747fU,
  0xbd0b9538bdbba0d0U, 0xbe8a7f273d69e70bU, 0xbd196e083e31b0f2U, 0x3e2eff15bcd93930U,
  0x3da1ec65be8d3b66U, 0x3cd5d6713e19d326U, 0x3d78da2cbe2a2bc8U, 0x3e28b310bd3ce648U,
  0xbd744872bde3504eU, 0xbe0512ddbe071aa2U, 0x397c73003dc752a4U, 0xbe69b5a2bdd87313U,
  0x3db1d8bb3d321230U, 0x3cb12ac53e5f617aU, 0xbe561e9abd3c81c0U, 0xbe493d043e7b6190U,
  0x3e3a978a3e851da0U, 0xbc82af683e0fabbcU, 0xbd9a0d43bd7ce2f6U, 0x3e2bb37f3c8f603fU,
  0xbdd44d9abdf525dfU, 0xbe5fa898bd8bba0aU, 0x3de4eb9d3e044aa1U, 0xbe94cb57bcf68067U,
  0xbe2375c8bdc31c92U, 0x3e06c5adbe1303d0U, 0x3dc683303d80adb6U, 0xbe35b27ebe0c01d2U,
  0x3e44378d3d940e84U, 0xbe3ba637bdf90550U, 0x3dd864423de63b3eU, 0x3e3160d6be95cbbeU,
  0x3e8bdfc9be40d213U, 0x3e0e64253ea01a10U, 0x3e5d4d173e4dd145U, 0x3e3c7b553ddaf87aU,
  0x3d89839b3e659449U, 0xbe018b0cbdca33a9U, 0xbe0bd8ff3d860316U, 0x3d563df43e583babU,
  0x3bb58d62be0456d8U, 0x3e9b847cbd68f459U, 0x3e5a60a73ed0a9d2U, 0x3e2814363e14cee8U,
  0x3e1e3aeb3e5439caU, 0x3ab05cce3e4e42a6U, 0xbe144ab8be4e1756U, 0xbeed8f39be6f653fU,
  0xbbfbd3113c9baac0U, 0xbb8717bd3c08ca27U, 0xbe797a3b3e8613b1U, 0xbc2a05a4bd7ebe77U,
  0xbd57dba7bdcff564U, 0x3e34fa6a3cffc758U, 0x3d88dfd9be47bef3U, 0xbde65c833daca395U,
  0xbe0645563df8f461U, 0xbd0262873e4a1becU, 0x3d67775d3e450082U, 0xbe6f0bb4be0a3c15U,
  0x3dcf73ac3d7f6efbU, 0xbcb4d8c8bbb73d68U, 0x3df58f843dd7f586U, 0xbe2cf324bdacc634U,
  0x3e9113993e3f8d34U, 0xbd6251553e829df4U, 0x3e99f9f23e386b9fU, 0x3df8749ebc3baccaU,
  0x3dc47583bd5df10eU, 0x3ebfa06f3e2e85c6U, 0x3d45254e3e8737c9U, 0x3e8218f73e717328U,
  0xbde4f937bd52c28cU, 0xbce2b8723e27aab3U, 0x3ddb26223e521cc0U, 0x3eb3e8773ec6ee7aU,
  0x3e8d646cbdcdc0e8U, 0xbe2b74da3c3d5d26U, 0x3da5ec07bec231a9U, 0xbab41f5ebe33f7d2U,
  0x3cff988e3db1967aU, 0x3e98d1b43e7b42a4U, 0x3e2ea6a5be2ded50U, 0x3e5e1c333e6d44e7U,
  0x3e8098d4bcdccb52U, 0x3d1ea86e3e043e71U, 0xbe4925563dd97dd7U, 0x3e5f439b3e0355bbU,
  0xbc4eb77d3d632a01U, 0x3df3d81a3df3cd38U, 0xbc8ec8063e451437U, 0x3cbc66643e35b78dU,
  0x3e3f1c623c279f6aU, 0x3e85d8373e8e48f8U, 0x3ead3e5b3e42f3a9U, 0x3ebacbcb3e9be6d5U,
  0x3daf928e3dec03fcU, 0x3e8e1d283de2b9e4U, 0xbc71c5533ce9b5edU, 0xbd714ad53be78656U,
  0x3e04c1d53e280093U, 0x3e269c11be82cdf8U, 0xbe83d4debe5103a0U, 0x3e22f4353e884539U,
  0xbe0c803c3d79b604U, 0xbe1b8fe43d3b14c0U, 0x3e3224a3bd187005U, 0x3d7acad0be8fcbeeU,
  0x3db5d24b3e26f1fcU, 0x3c900da2bda30f5bU, 0x3e6cef1a3ed6ce9bU, 0x3e91142b3e628bdfU,
  0xbd1bde69bd7d8694U, 0xbe0e6f033e328db1U, 0xbe0738ec3e28a38dU, 0xbe5564083e4bfd07U,
  0xbe8c9fc2bdb46cfeU, 0x3e2dd5773ae7118fU, 0xbafa4eeebe10b8fbU, 0x3e23a0673e2912faU,
  0x3df2bbe83d4af1abU, 0xbe2ce8fd3e2fd1dfU, 0x3cbfa29fbe133e34U, 0x3cc78eb3be2d5723U,
  0xbd8dd2483e02a370U, 0xbe358e41be33f0a1U, 0x3e60f9a73ddd9704U, 0xb9ab6a64bd3422bdU,
  0xbdc29d9d3e371777U, 0x3e5713193e4875c4U, 0x3e7e59ca3d6221eaU, 0x3e6b7cbb3e2f052eU,
  0x3e2c7ea63e52e966U, 0x3d55a7dabd82159dU, 0xbd953d0b3d6879ceU, 0xbcb79de13eaaeb53U,
  0x3c12178abe2eb488U, 0xbd11fba8be31663fU, 0x3e8804453d7de03dU, 0x3ea102403ea3a5a5U,
  0x3e0e101c3e8edda2U, 0xbd8a8becbe55d56fU, 0xbe8ae97abe8b2135U, 0xbdd2b53ebeaea8d3U,
  0xbdb72032bd8b14c1U, 0xbe5dba143de4a05bU, 0xbb6ecdb23e429794U, 0x3c69ec18be3637cfU,
  0x3e6ab9f43e811bc7U, 0x3e61845ebddc1961U, 0xbdb818ca3e82c7b3U, 0x3ac840143ddf6920U,
  0x3cae9a833e1084eeU, 0x3dfaad793d8d6c56U, 0xbdca403f3ea32526U, 0x3dfc5d9f3eb59572U,
  0x3e8a4a263db82651U, 0x3ce03050bdda0addU, 0x3e2fcff9be7a8412U, 0x3de87930bdcfb3eeU,
  0xbdcec8ef3e918bcdU, 0xbca358c2be090212U, 0x3e8a96033d329a2bU, 0xbea19f813e0ac7baU,
  0x3e1d3dfa3e736541U, 0xbe176531bc259b23U, 0xbde12f45bd742baaU, 0xbcec63c23d03e116U,
  0x3c73f2cdbe820dd7U, 0xbdfa46ce3c9bed57U, 0x3e16b3ed3df79f2dU, 0xbe2ea9d43bb3076cU,
  0xbde45bbdbdbac746U, 0xbeceff563e1c4533U, 0xbc552db4beab5b35U, 0xbe92cd41bee2e9e2U,
  0x3e49aca83d4a57c9U, 0x3cc8a0bbbbd5a481U, 0x3d50d6efbe4b9ca4U, 0x3d9cb3f93da90ac9U,
  0x3d848cb03e23fc97U, 0x3d0f0ee13de067b8U, 0xbe62e18cbe03beb9U, 0x3e21b9c73d0cba6fU,
  0x3db804d33cd810c8U, 0x3e12e8aa3e2e2262U, 0xbdc376dd3d898147U, 0x3de8f2f03e6a7906U,
  0xbe51c3e53cdc90a9U, 0xbe9a2eb1be897a23U, 0x3e3c91a6bcbb35bbU, 0xbea93eadbdcaeb68U,
  0x3dfd7ad8bdcd451fU, 0x3e8d1022bd3e622aU, 0x3e8eaf1cbd0f66d4U, 0xbd11ecccbd692199U,
  0x3e75c612bb958cd4U, 0x3eaaa4333e4b0e83U, 0x3d8029423ea96126U, 0x3e87b2923d8a1feaU,
  0x3e11b70b3e3a15d3U, 0x3df5ab063c0fd9e3U, 0x3e9d92e63ec49a42U, 0x3e9fd2e8bd347929U,
  0x3c0684bd3d426506U, 0xbe74ea8bbe8813c3U, 0xbe675edbbca1e341U, 0xbef7f861be51fde9U,
  0x3e18e1393e86a398U, 0xbe00629a3e867606U, 0x3d9f849dbdca5847U, 0x3d0a8c5ebe300887U,
  0x3c7eabc8be3b211dU, 0xbe15b577be0e98e1U, 0x3e4ec2d7be81f5a5U, 0xbe3dde34bddccdfeU,
  0xbe167fdabde612dcU, 0xbe16fadb3e6cb7baU, 0xbe42c70bbe1006f8U, 0xbe554e0c3d024010U,
  0x3c6464e63e4f162dU, 0xbe716d47bda27f94U, 0x3e20967c3e3816a5U, 0xbde582ce3e4fe462U,
  0x3e66479f3e297505U, 0x3b13a596bdf12f85U, 0x3e8aa0f33e0f5d9dU, 0x3e8b92573ea93aecU,
  0xbe3a3f373e0a5d4dU, 0x3e50891fbd9642f7U, 0xbc7fa9b13e625f1aU, 0x3e9dc714bbdd18f3U,
  0x3db1dc2e3e95201cU, 0x3e99dae3be4fec08U, 0x3d2a5ff33e1c50b4U, 0x3e03978a3dd1395cU,
  0x3e74b82e3ea624adU, 0xbeae2ba1be34b73fU, 0xbe112ec4bebb8566U, 0xbe262013bcda95d9U,
  0xbe180acfbe1e6fe9U, 0x3e12f379bdf84cb3U, 0xbd335b5d3c6ab8ffU, 0xbe83ecdbbe1e075eU,
  0xbdd25ac4be7ce962U, 0xbe6d22233e15fa40U, 0x3d62781f3e0fe683U, 0x3e29f30bbe74b80bU,
  0xbd1ec1d13cf92e45U, 0xbe2403333e417708U, 0x3d14feccbe791f7cU, 0x3dc372ddbe72edb3U,
  0xbe772ca13e3f0ce2U, 0x3de24169be86df6fU, 0x3e398d69bde72b62U, 0xbd5f7db7bd1380c5U,
  0x3e61a299bb05030dU, 0x3e0d3f35bdd65196U, 0x3e53c4553d9b493dU, 0xbe90c75a3e5851c1U,
  0x3e33fc6e3e5222a2U, 0x3d264544bcfcb66fU, 0xbd5c98ccbe436f06U, 0xbdaeb50d3e5ce935U,
  0xbe5e1e34be340055U, 0xbd5272463d74245bU, 0x3dd62471be101fbbU, 0x3dd781b93e69fc4cU,
  0x3df3ac0f3e487203U, 0xbe6839b93c2e22a8U, 0x3dcb45a6bb2db936U, 0xbe7d5c23bc265719U,
  0x3e08dd6bU, 0xbd1e1ac7bdc75452U, 0x3e0c90e2bd855b54U, 0xbc29a97ebd15b981U,
  0xbdb258e1bdf7b577U, 0xbdc646413e35aca9U, 0xbe0b03b2be053586U, 0xbd0d1d6bbded30e9U,
  0x3e472066bed72c85U, 0xbe9621843d948f74U, 0xbe80b2183e0d4a6aU, 0xbe1904543e5a6296U,
  0xbe7aa4113ea5a7fbU, 0xbd6d12d8be1f142aU, 0x3e8c42f7beafb5e6U, 0x3e97027bbeb85790U,
  0x3de3ca44be978745U, 0xbe3c73b33c8258e3U, 0xbd27b6843f013c0cU, 0x3e8443ab3e9d0e80U,
  0x3ec9827b3e015881U, 0x3f14f2553ea637a8U, 0x3eba30b83ecb8412U, 0xbe36ca303ef0426aU,
  0x3eb7fb9dbef1a311U, 0xbaa69aa43f0b6cf4U, 0x3ec313283dda89cfU, 0xbc66cb953f0ee091U,
  0xbe796cc63d78899bU, 0x3e857729bdc38f2bU, 0x3ee080fb3edc0b00U, 0xbe92dbc73ef94430U,
  0x3ec9c22d3ea09fc8U, 0xbe205016bf43fda7U, 0x3eb494cc3ab7a213U, 0xbea580d7bf27bd8cU,
  0xbdf7d4b1bf1f6774U, 0xbe67ace33ed994aeU, 0xbefaba92beb61ad1U, 0xbe98d5853e3d7a49U,
  0x3e44583ebe68c86dU, 0xbec0eb933d1cbde0U, 0xbe6acaa1bea88dddU, 0x3d80ed5cbd006a50U,
  0xbe7857f4bdf09f68U, 0xbe8f6b723d66f208U, 0xbd3608b8bc4d1ce0U, 0x3edce0533e831729U,
  0xbe96f4ae3ec30ad6U, 0x3e7af311bf461e75U, 0x3d87814ebf2ae42eU, 0xbd49d5e6bf2af61bU,
  0x3eaac3b0bf051de6U, 0xbed7747e3ee1b189U, 0x3d8d7376bf1a300cU, 0x3e5c04e5beff2c83U,
  0xbeb07a643e9dd595U, 0x3ec33779beb93df8U, 0xbe266c783e5d382aU, 0xbe3c10fabe922036U,
  0xbcbf81b0be88fea8U, 0xbd5b2aa8bcf12440U, 0xbe8909b73cda6890U, 0xbe8abef03ebc1b57U,
  0x3ea20de5bbca4800U, 0xbe0303e43ea322e3U, 0xbe5e55aebe368b68U, 0xbe0c27a0bebc5954U,
  0xbe22d9ae3dc1e0acU, 0x3eaa7191be44c4fdU, 0xbe67b1673e89f2a9U, 0xbcc62510be343bb2U,
  0xbcc898f03d36030eU, 0xbde862f83de498dbU, 0xbe23ce68bdfd8206U, 0xbe27af5cbe9ae77aU,
  0xbe25cb443ed241e4U, 0xbebac75e3d962074U, 0xbda6006a3d216d41U, 0xbe270506beb15448U,
  0x3eb831bf3e7d8efeU, 0xbe61f3b03f080a39U, 0xbd9c60ba3d1c4051U, 0xbebda1b03e9ffce0U,
  0x3eac085c3f102515U, 0x3dbf60fc3d55ff83U, 0x3edd374e3e049d6aU, 0x3e3442313e42e96bU,
  0xbed1bd243ec1cffbU, 0xbe9883dbbeb913abU, 0xbe838b64be4cdeabU, 0x3e2cfc21be15f60aU,
  0xbdd81751be1a3a64U, 0x3d0a7cacbe39c954U, 0x3eb7ca64be4c5bc2U, 0xbe959f1c3ebcdff1U,
  0x3c5548c0be16bd58U, 0x3c345547be21c196U, 0xbe1ebf4b3f118bc3U, 0x3e2c88163d886054U,
  0x3e09d24a3e568726U, 0x3ee2b3c8bdbc8e17U, 0x3efde365bcb5ee4fU, 0x3ea5525c3ecc4eaaU,
  0x3e445b46be07bd59U, 0xbe9f1baa3f4ea420U, 0xbe0cd49e3eec83e1U, 0xbd1ad1e23f39bfcaU,
  0x3e290ab23f066685U, 0x3db09d113e60d15aU, 0x3ee819ce3ef53776U, 0xbe64af433ea9f68aU,
  0xbe97f3ab3ecfaa25U, 0x3e80f891bef4892fU, 0xbe0bcdbcbf00c3faU, 0x3dffaa8cbe42fd1dU,
  0x3e918ec2bdf60c64U, 0x3d7434953d37f88eU, 0xbe09bbd43dfa8cb4U, 0x3e82b14b3e81e773U,
  0x3e2ffec2becfc22eU, 0x3ea68ae3be978605U, 0xbe890209bec6d4ebU, 0x3ec039163eb7dd1eU,
  0xbdcc20f03ea89022U, 0xbdcc5bc2bd6044a5U, 0x3ec39aee3ed491c2U, 0xbd67f9b5be22f5b4U,
  0x3de64cd4bea6335aU, 0x3cc318c03ead98a9U, 0x3ec74e0dbc9491b0U, 0x3e720dfabc2f7ec0U,
  0xbec10024bec1c843U, 0x3e36fc72be72cd60U, 0xbe3775b83e9e2471U, 0xbead49b4be420118U,
  0xbded169c00000000U, 0x3e1851babe003a5dU, 0x3e0914dc00000000U, 0x0U,
  0xbdf03e47bc1b6e22U, 0x3d203524bb4f358fU, 0x3de8d292bdee0c62U, 0xbcb4b185U,
  0xbf2bcda23e922264U, 0x3f32f1d0bebf2d41U, 0x3f40e128bdb92f88U, 0x3ca13200bf04f075U,
  0xbe887800bec96ab1U, 0xbed5e1fc3cea1345U, 0x3e340cecbf0a76cdU, 0x3e8491083e90564eU,
  0x3debed9dU,
};



AI_API_DECLARE_BEGIN

/*!
 * @brief Get network weights array pointer as a handle ptr.
 * @ingroup network_data
 * @return a ai_handle pointer to the weights array
 */
AI_DEPRECATED
AI_API_ENTRY
ai_handle ai_network_data_weights_get(void)
{
  static const ai_u8* const s_network_weights_map[1 + 2] = {
    AI_PTR(AI_MAGIC_MARKER),
    AI_PTR(s_network_weights_array_u64),
    AI_PTR(AI_MAGIC_MARKER)
  };

  return AI_HANDLE_PTR(s_network_weights_map);

}


/*!
 * @brief Get network params configuration data structure.
 * @ingroup network_data
 * @return true if a valid configuration is present, false otherwise
 */
AI_API_ENTRY
ai_bool ai_network_data_params_get(ai_handle network, ai_network_params* params)
{
  if (!(network && params)) return false;
  
  static ai_buffer s_network_data_map_activations[AI_NETWORK_DATA_ACTIVATIONS_COUNT] = {
    AI_BUFFER_OBJ_INIT(AI_BUFFER_FORMAT_U8, 1, 1, AI_NETWORK_DATA_ACTIVATIONS_SIZE, 1, NULL)
  };

  const ai_buffer_array map_activations = 
    AI_BUFFER_ARRAY_OBJ_INIT(AI_FLAG_NONE, AI_NETWORK_DATA_ACTIVATIONS_COUNT, s_network_data_map_activations);
  
  static ai_buffer s_network_data_map_weights[AI_NETWORK_DATA_WEIGHTS_COUNT] = {
    AI_BUFFER_OBJ_INIT(AI_BUFFER_FORMAT_U8, 1, 1, 5320, 1, s_network_weights_array_u64),
    
  };

  const ai_buffer_array map_weights = 
    AI_BUFFER_ARRAY_OBJ_INIT(AI_FLAG_NONE, AI_NETWORK_DATA_WEIGHTS_COUNT, s_network_data_map_weights);

  return ai_platform_bind_network_params(network, params, &map_weights, &map_activations);
}


AI_API_DECLARE_END
